TRT-101401-EntropyCalibration2
images: 3c010a14
/model.0/conv/Conv_output_0: 3ecc586b
/model.0/act/Sigmoid_output_0: 3c010a14
/model.0/act/Mul_output_0: 3dbfc934
/model.1/conv/Conv_output_0: 3eada7f0
/model.1/act/Sigmoid_output_0: 3c010a14
/model.1/act/Mul_output_0: 3ddcb1e2
/model.2/cv1/conv/Conv_output_0: 3e2d14f6
/model.2/cv1/act/Sigmoid_output_0: 3c010a14
/model.2/cv1/act/Mul_output_0: 3d30f5e4
/model.22/Reshape_1_output_0: 3f17cbb0
ONNXTRT_Broadcast_426_output: 3e810a14
/model.22/cv2.2/cv2.2.1/act/Mul_output_0: 3e8231de
/model.22/Add_8_output_0: 3e810a14
/model.22/Unsqueeze_6_output_0: 3e9f4871
/model.22/Range_3_output_0: 3e9d4449
/model.2/Split_output_0: 3d30f5e4
/model.22/Reshape_11_output_0: 3e9f4871
/model.22/Add_11_output_0: 3fa0930a
/model.22/Concat_6_output_0: 3f041fe0
/model.2/Split_output_1: 3d11e20a
/model.2/m.0/cv1/conv/Conv_output_0: 3e159734
/model.2/m.0/cv1/act/Sigmoid_output_0: 3c00f1e2
/model.2/m.0/cv1/act/Mul_output_0: 3d6d5283
/model.2/m.0/cv2/conv/Conv_output_0: 3dd7e77e
/model.2/m.0/cv2/act/Sigmoid_output_0: 3c00f0fd
/model.2/m.0/cv2/act/Mul_output_0: 3d45bbf2
/model.2/m.0/Add_output_0: 3da2668b
/model.2/m.1/cv1/conv/Conv_output_0: 3da52f64
/model.2/m.1/cv1/act/Sigmoid_output_0: 3c00b0da
/model.2/m.1/cv1/act/Mul_output_0: 3d0068ab
/model.2/m.1/cv2/conv/Conv_output_0: 3e18e79c
/model.2/m.1/cv2/act/Sigmoid_output_0: 3c010a14
/model.2/m.1/cv2/act/Mul_output_0: 3d91f7bb
/model.2/m.1/Add_output_0: 3defbfe3
/model.2/Concat_output_0: 3dc6c12d
/model.2/cv2/conv/Conv_output_0: 3dd5c95d
/model.2/cv2/act/Sigmoid_output_0: 3c0213dd
/model.2/cv2/act/Mul_output_0: 3d2bdbe2
/model.3/conv/Conv_output_0: 3d8d8166
/model.3/act/Sigmoid_output_0: 3bffaa42
/model.3/act/Mul_output_0: 3d028d5b
/model.4/cv1/conv/Conv_output_0: 3dc5435a
/model.4/cv1/act/Sigmoid_output_0: 3c01121b
/model.4/cv1/act/Mul_output_0: 3d41de21
/model.22/dfl/conv/Conv_output_0: 3de35de5
/model.22/Reshape_17_output_0: 3e1d4449
/model.22/Concat_20_output_0: 3e1d4449
/model.22/dfl/Reshape_1_output_0: 3de35de5
/model.22/Reshape_10_output_0: 3e9f4871
tmp_refittable_weight_0_output: 0
/model.4/Split_output_0: 3d41de21
/model.22/Reshape_16_output_0: 3e1d4449
/model.22/Sub_1_output_0: 3e84df1a
/model.21/m.1/cv1/conv/Conv_output_0: 3e09f0a5
/model.4/Split_output_1: 3ce6f906
/model.4/m.0/cv1/conv/Conv_output_0: 3da04b21
/model.4/m.0/cv1/act/Sigmoid_output_0: 3c00bb27
/model.4/m.0/cv1/act/Mul_output_0: 3cc3b8fb
/model.4/m.0/cv2/conv/Conv_output_0: 3d814bba
/model.4/m.0/cv2/act/Sigmoid_output_0: 3c00a063
/model.4/m.0/cv2/act/Mul_output_0: 3c8852ff
/model.4/m.0/Add_output_0: 3d21fa3d
/model.4/m.1/cv1/conv/Conv_output_0: 3d9f86aa
/model.4/m.1/cv1/act/Sigmoid_output_0: 3c018d43
/model.4/m.1/cv1/act/Mul_output_0: 3c8217c3
/model.4/m.1/cv2/conv/Conv_output_0: 3d6767fa
/model.4/m.1/cv2/act/Sigmoid_output_0: 3c00b993
/model.4/m.1/cv2/act/Mul_output_0: 3cb36b48
/model.4/m.1/Add_output_0: 3d2c595b
/model.4/m.2/cv1/conv/Conv_output_0: 3d8f5c48
/model.4/m.2/cv1/act/Sigmoid_output_0: 3c0052be
/model.4/m.2/cv1/act/Mul_output_0: 3c4171e5
/model.4/m.2/cv2/conv/Conv_output_0: 3d838057
/model.4/m.2/cv2/act/Sigmoid_output_0: 3c00e828
/model.4/m.2/cv2/act/Mul_output_0: 3cc095e8
/model.4/m.2/Add_output_0: 3d70688b
/model.4/m.3/cv1/conv/Conv_output_0: 3d8dd4ca
/model.4/m.3/cv1/act/Sigmoid_output_0: 3c0084ff
/model.4/m.3/cv1/act/Mul_output_0: 3c6a0b6b
/model.4/m.3/cv2/conv/Conv_output_0: 3de2e726
/model.4/m.3/cv2/act/Sigmoid_output_0: 3c010a14
/model.4/m.3/cv2/act/Mul_output_0: 3d42a24c
/model.4/m.3/Add_output_0: 3dd0a5b0
/model.4/Concat_output_0: 3d8f1fd8
/model.4/cv2/conv/Conv_output_0: 3d95672e
/model.4/cv2/act/Sigmoid_output_0: 3c0111f2
/model.4/cv2/act/Mul_output_0: 3cb33ea5
/model.5/conv/Conv_output_0: 3d8bee7f
/model.5/act/Sigmoid_output_0: 3c011213
/model.5/act/Mul_output_0: 3d11d393
/model.6/cv1/conv/Conv_output_0: 3df88a74
/model.6/cv1/act/Sigmoid_output_0: 3c010a14
/model.6/cv1/act/Mul_output_0: 3d9a1bc3
/model.22/cv2.2/cv2.2.0/conv/Conv_output_0: 3e47e99c
/model.22/Unsqueeze_9_output_0: 3e1d4449
/model.21/m.0/cv2/act/Sigmoid_output_0: 3c03d69d
/model.22/Unsqueeze_12_output_0: 3f204a85
ONNXTRT_Broadcast_200_output: 3b810a14
/model.22/Transpose_output_0: 3f204a85
/model.6/Split_output_0: 3d9a1bc3
/model.22/Add_5_output_0: 3e010a14
/model.21/m.0/cv1/act/Mul_output_0: 3d282404
/model.21/m.0/cv2/conv/Conv_output_0: 3df9d460
/model.6/Split_output_1: 3d038914
/model.6/m.0/cv1/conv/Conv_output_0: 3d8c933a
/model.6/m.0/cv1/act/Sigmoid_output_0: 3c010b69
/model.6/m.0/cv1/act/Mul_output_0: 3cc1ff2b
/model.6/m.0/cv2/conv/Conv_output_0: 3d772c3a
/model.6/m.0/cv2/act/Sigmoid_output_0: 3c00e0ac
/model.6/m.0/cv2/act/Mul_output_0: 3cb235a9
/model.6/m.0/Add_output_0: 3d642988
/model.6/m.1/cv1/conv/Conv_output_0: 3d93795a
/model.6/m.1/cv1/act/Sigmoid_output_0: 3c00e92a
/model.6/m.1/cv1/act/Mul_output_0: 3c747838
/model.6/m.1/cv2/conv/Conv_output_0: 3d886f01
/model.6/m.1/cv2/act/Sigmoid_output_0: 3c01121b
/model.6/m.1/cv2/act/Mul_output_0: 3cd3a0f6
/model.6/m.1/Add_output_0: 3d6565cd
/model.6/m.2/cv1/conv/Conv_output_0: 3d9e866f
/model.6/m.2/cv1/act/Sigmoid_output_0: 3c01001b
/model.6/m.2/cv1/act/Mul_output_0: 3c665689
/model.6/m.2/cv2/conv/Conv_output_0: 3db00fb7
/model.6/m.2/cv2/act/Sigmoid_output_0: 3c01120c
/model.6/m.2/cv2/act/Mul_output_0: 3d141d8f
/model.6/m.2/Add_output_0: 3d8d1da0
/model.6/m.3/cv1/conv/Conv_output_0: 3da0fe41
/model.6/m.3/cv1/act/Sigmoid_output_0: 3c01104f
/model.6/m.3/cv1/act/Mul_output_0: 3c611575
/model.6/m.3/cv2/conv/Conv_output_0: 3e2df533
/model.6/m.3/cv2/act/Sigmoid_output_0: 3c010a14
/model.6/m.3/cv2/act/Mul_output_0: 3d256f4d
/model.6/m.3/Add_output_0: 3df372aa
/model.6/Concat_output_0: 3d98cc00
/model.6/cv2/conv/Conv_output_0: 3dcf7df1
/model.6/cv2/act/Sigmoid_output_0: 3c010a14
/model.6/cv2/act/Mul_output_0: 3cddf5f3
/model.7/conv/Conv_output_0: 3dd6ee7c
/model.7/act/Sigmoid_output_0: 3c01118b
/model.7/act/Mul_output_0: 3d462741
/model.8/cv1/conv/Conv_output_0: 3dc492c7
/model.8/cv1/act/Sigmoid_output_0: 3c00f1e2
/model.8/cv1/act/Mul_output_0: 3d69f6dc
/model.22/Expand_5_output_0: 3e1d4449
/model.22/Expand_4_output_0: 3e1d4449
ONNXTRT_Broadcast_285_output: 3b810a14
/model.22/dfl/Reshape_output_0: 3ec28458
/model.22/Sub_output_0: 3f1fc5eb
/model.22/cv3.1/cv3.1.2/Conv_output_0: 3f7c564a
/model.8/Split_output_0: 3d69f6dc
/model.22/Constant_56_output_0_output: 3c810a14
/model.22/Sigmoid_output_0: 3be51d75
tmp_refittable_weight_1_output: 0
/model.8/Split_output_1: 3d4361cc
/model.8/m.0/cv1/conv/Conv_output_0: 3da9b5e6
/model.8/m.0/cv1/act/Sigmoid_output_0: 3c00f018
/model.8/m.0/cv1/act/Mul_output_0: 3d142cf8
/model.8/m.0/cv2/conv/Conv_output_0: 3da122ed
/model.8/m.0/cv2/act/Sigmoid_output_0: 3c00f16e
/model.8/m.0/cv2/act/Mul_output_0: 3d023612
/model.8/m.0/Add_output_0: 3d8cd4a1
/model.8/m.1/cv1/conv/Conv_output_0: 3d98f427
/model.8/m.1/cv1/act/Sigmoid_output_0: 3c020b10
/model.8/m.1/cv1/act/Mul_output_0: 3cc11789
/model.8/m.1/cv2/conv/Conv_output_0: 3da8dd35
/model.8/m.1/cv2/act/Sigmoid_output_0: 3c00f05d
/model.8/m.1/cv2/act/Mul_output_0: 3d4292f5
/model.8/m.1/Add_output_0: 3dbdfca3
/model.8/Concat_output_0: 3d69f6dc
/model.8/cv2/conv/Conv_output_0: 3da9a20c
/model.8/cv2/act/Sigmoid_output_0: 3c00f192
/model.8/cv2/act/Mul_output_0: 3d421929
/model.9/cv1/conv/Conv_output_0: 3d9ee226
/model.9/cv1/act/Sigmoid_output_0: 3c00d003
/model.9/cv1/act/Mul_output_0: 3d67df58
/model.9/m/MaxPool_output_0: 3d67df58
/model.9/m_1/MaxPool_output_0: 3d67df58
/model.9/m_2/MaxPool_output_0: 3d67df58
/model.9/Concat_output_0: 3dbe1aaa
/model.9/cv2/conv/Conv_output_0: 3d9476e3
/model.9/cv2/act/Sigmoid_output_0: 3c00cf6a
/model.9/cv2/act/Mul_output_0: 3cd2f8fb
/model.10/Resize_output_0: 3cd2f8fb
/model.11/Concat_output_0: 3cddf5f3
/model.12/cv1/conv/Conv_output_0: 3dc07158
/model.12/cv1/act/Sigmoid_output_0: 3c00b089
/model.12/cv1/act/Mul_output_0: 3d24283e
/model.22/Reshape_14_output_0: 3e1d4449
ONNXTRT_ShapeShuffle_204_output: 0
ONNXTRT_Broadcast_202_output: 3b810a14
/model.22/Add_10_output_0: 3f218e84
/model.22/cv2.1/cv2.1.1/act/Mul_output_0: 3dcbf17a
/model.22/Reshape_9_output_0: 3e9f4871
/model.12/Split_output_0: 3d251305
/model.22/Concat_2_output_0: 3e4f5d1c
/model.22/Reshape_15_output_0: 3e1d4449
/model.21/m.1/cv1/act/Sigmoid_output_0: 3c01d233
/model.12/Split_output_1: 3d24283e
/model.12/m.0/cv1/conv/Conv_output_0: 3da9cbc1
/model.12/m.0/cv1/act/Sigmoid_output_0: 3c00ee7f
/model.12/m.0/cv1/act/Mul_output_0: 3d03c7bb
/model.12/m.0/cv2/conv/Conv_output_0: 3d99297a
/model.12/m.0/cv2/act/Sigmoid_output_0: 3c00edc7
/model.12/m.0/cv2/act/Mul_output_0: 3cd32367
/model.12/m.1/cv1/conv/Conv_output_0: 3dad4c44
/model.12/m.1/cv1/act/Sigmoid_output_0: 3c00b0ae
/model.12/m.1/cv1/act/Mul_output_0: 3d26f3a2
/model.12/m.1/cv2/conv/Conv_output_0: 3da1f9a6
/model.12/m.1/cv2/act/Sigmoid_output_0: 3c010852
/model.12/m.1/cv2/act/Mul_output_0: 3ceb8b98
/model.12/Concat_output_0: 3d24283e
/model.12/cv2/conv/Conv_output_0: 3da659a6
/model.12/cv2/act/Sigmoid_output_0: 3c00e15d
/model.12/cv2/act/Mul_output_0: 3cb32d33
/model.13/Resize_output_0: 3cb32d33
/model.14/Concat_output_0: 3cb33ea5
/model.15/cv1/conv/Conv_output_0: 3d9f3add
/model.15/cv1/act/Sigmoid_output_0: 3bffc521
/model.15/cv1/act/Mul_output_0: 3ce8c9bb
/model.22/Reshape_13_output_0: 3e1d4449
/model.22/Concat_23_output_0: 3e810a14
ONNXTRT_Broadcast_419_output: 3c810a14
/model.22/cv3.2/cv3.2.2/Conv_output_0: 3f02f345
/model.22/cv2.2/cv2.2.1/act/Sigmoid_output_0: 3c010a14
/model.22/cv2.2/cv2.2.1/conv/Conv_output_0: 3eff0242
/model.15/Split_output_0: 3d11a56a
/model.21/m.0/cv2/act/Mul_output_0: 3d4306e0
/model.22/cv3.1/cv3.1.1/act/Sigmoid_output_0: 3c010a14
/model.22/cv3.2/cv3.2.0/act/Mul_output_0: 3d97629f
/model.15/Split_output_1: 3d0128da
/model.15/m.0/cv1/conv/Conv_output_0: 3d9fff13
/model.15/m.0/cv1/act/Sigmoid_output_0: 3c00b6d2
/model.15/m.0/cv1/act/Mul_output_0: 3cb27849
/model.15/m.0/cv2/conv/Conv_output_0: 3d812494
/model.15/m.0/cv2/act/Sigmoid_output_0: 3c00c6e6
/model.15/m.0/cv2/act/Mul_output_0: 3cb334d4
/model.15/m.1/cv1/conv/Conv_output_0: 3d93a804
/model.15/m.1/cv1/act/Sigmoid_output_0: 3bfed8d3
/model.15/m.1/cv1/act/Mul_output_0: 3d14730f
/model.15/m.1/cv2/conv/Conv_output_0: 3dbe7cb8
/model.15/m.1/cv2/act/Sigmoid_output_0: 3c0111e9
/model.15/m.1/cv2/act/Mul_output_0: 3d2ae883
/model.15/Concat_output_0: 3d159d61
/model.15/cv2/conv/Conv_output_0: 3dc87d3c
/model.15/cv2/act/Sigmoid_output_0: 3c021422
/model.15/cv2/act/Mul_output_0: 3c96eda0
/model.16/conv/Conv_output_0: 3dc1f513
/model.22/cv2.0/cv2.0.0/conv/Conv_output_0: 3dd7943d
/model.22/cv3.0/cv3.0.0/conv/Conv_output_0: 3df9153a
/model.16/act/Sigmoid_output_0: 3c010a14
/model.22/cv2.0/cv2.0.0/act/Sigmoid_output_0: 3c01120f
/model.22/cv3.0/cv3.0.0/act/Sigmoid_output_0: 3c00f9f4
/model.16/act/Mul_output_0: 3d1650ae
/model.22/cv2.0/cv2.0.0/act/Mul_output_0: 3d472e36
/model.22/cv3.0/cv3.0.0/act/Mul_output_0: 3d440be5
/model.17/Concat_output_0: 3d1650ae
/model.22/cv2.0/cv2.0.1/conv/Conv_output_0: 3e253e0b
/model.22/cv3.0/cv3.0.1/conv/Conv_output_0: 3e901f75
/model.18/cv1/conv/Conv_output_0: 3def1fcd
/model.22/cv2.0/cv2.0.1/act/Sigmoid_output_0: 3c010a14
/model.22/cv3.0/cv3.0.1/act/Sigmoid_output_0: 3c010a14
/model.18/cv1/act/Sigmoid_output_0: 3c010a14
/model.22/cv2.0/cv2.0.1/act/Mul_output_0: 3dcb47d8
/model.22/cv3.0/cv3.0.1/act/Mul_output_0: 3dcabba4
/model.18/cv1/act/Mul_output_0: 3d09c32e
/model.22/cv2.0/cv2.0.2/Conv_output_0: 3ec25238
/model.22/cv3.0/cv3.0.2/Conv_output_0: 3f67699c
/model.22/cv3.1/cv3.1.0/act/Mul_output_0: 3d41aa65
/model.22/Range_4_output_0: 3e193bf8
/model.21/cv2/act/Sigmoid_output_0: 3c02f5e8
/model.22/Range_5_output_0: 3e193bf8
/model.22/cv3.2/cv3.2.0/conv/Conv_output_0: 3e4bba2f
/model.21/Concat_output_0: 3d3fb1d5
/model.18/Split_output_0: 3d490ac3
/model.22/cv2.2/cv2.2.0/act/Mul_output_0: 3d9ae176
/model.22/Reshape_12_output_0: 3e9f4871
/model.21/m.1/cv2/act/Mul_output_0: 3d3fb1d5
/model.18/Split_output_1: 3d09c32e
/model.22/Concat_output_0: 3edf83cf
/model.18/m.0/cv1/conv/Conv_output_0: 3dc299c3
/model.22/cv3.1/cv3.1.0/act/Sigmoid_output_0: 3c010a14
/model.19/act/Mul_output_0: 3d275d5d
/model.18/m.0/cv1/act/Sigmoid_output_0: 3c010a14
/model.21/m.0/cv1/conv/Conv_output_0: 3df6e6b3
/model.22/cv2.1/cv2.1.1/act/Sigmoid_output_0: 3c010a14
/model.22/Concat_1_output_0: 3f17cbb0
ONNXTRT_ShapeShuffle_197_output: 3c010a14
/model.22/dfl/Transpose_output_0: 3ec28458
/model.22/Unsqueeze_10_output_0: 3e1d4449
/model.18/m.0/cv1/act/Mul_output_0: 3d29daba
/model.22/Concat_15_output_0: 3e9f4871
/model.22/Expand_3_output_0: 3e9f4871
/model.21/Split_output_0: 3d6e155a
/model.22/cv2.1/cv2.1.2/Conv_output_0: 3ec48851
/model.22/Squeeze_2_output_0_output: 3e810a14
/model.18/m.0/cv2/conv/Conv_output_0: 3dc0c1e7
/model.21/m.1/cv2/act/Sigmoid_output_0: 3c02f5d8
/model.22/Unsqueeze_7_output_0: 3e9f4871
/model.20/Concat_output_0: 3d275d5d
/model.22/Constant_10_output_0_output: 0
/model.22/Constant_11_output_0_output: 3c010a14
/model.22/cv2.1/cv2.1.0/act/Sigmoid_output_0: 3c053a73
/model.21/Split_output_1: 3d2924ff
/model.22/cv2.2/cv2.2.0/act/Sigmoid_output_0: 3c01f3e1
/model.22/Expand_2_output_0: 3e9f4871
/model.22/cv3.1/cv3.1.1/conv/Conv_output_0: 3e9ff93c
/model.21/cv1/conv/Conv_output_0: 3dbe354b
/model.22/cv2.1/cv2.1.0/act/Mul_output_0: 3d69c90f
/model.22/Range_output_0: 3f1f4871
ONNXTRT_ShapeShuffle_104_output: 3c010a14
/model.22/cv2.2/cv2.2.2/Conv_output_0: 3e3e2861
/model.22/dfl/Softmax_output: 3be133b5
ONNXTRT_flattenTensor_output: 3ec28458
/model.22/cv3.1/cv3.1.1/act/Mul_output_0: 3dd622a9
output0: 40a0bf29
/model.22/dfl/Softmax_output_0: 3be133b5
/model.22/ConstantOfShape_2_output_0: 0
/model.22/Range_1_output_0: 3f1f4871
ONNXTRT_ShapeShuffle_114_output: 3c010a14
/model.21/cv1/act/Mul_output_0: 3d6e155a
/model.22/cv3.2/cv3.2.1/act/Mul_output_0: 3dcd16b6
/model.18/m.0/cv2/act/Sigmoid_output_0: 3c011220
/model.22/Reshape_output_0: 3edf83cf
/model.22/Constant_12_output_0_output: 3b810a14
ONNXTRT_Broadcast_output: 3b810a14
/model.22/Reshape_4_output_0: 3f204a85
ONNXTRT_Broadcast_119_output: 3b810a14
/model.22/Reshape_3_output_0: 3f204a85
/model.22/Slice_output_0: 3de35de5
ONNXTRT_Broadcast_283_output: 3b810a14
/model.18/m.0/cv2/act/Mul_output_0: 3d27d83d
tmp_refittable_weight_output: 0
ONNXTRT_ShapeShuffle_121_output: 0
/model.22/ConstantOfShape_output_0: 0
ONNXTRT_ShapeShuffle_270_output: 3c010a14
/model.21/m.0/cv1/act/Sigmoid_output_0: 3c02d501
/model.22/cv3.1/cv3.1.0/conv/Conv_output_0: 3e0de739
/model.22/Concat_22_output_0: 3f204a85
/model.18/m.1/cv1/conv/Conv_output_0: 3db4eae5
/model.22/Squeeze_output_0_output: 3d810a14
ONNXTRT_Broadcast_124_output: 3d810a14
/model.22/Add_2_output_0: 3d810a14
ONNXTRT_Broadcast_207_output: 3e010a14
ONNXTRT_ShapeShuffle_187_output: 3c010a14
/model.21/m.1/cv1/act/Mul_output_0: 3d97e232
/model.18/m.1/cv1/act/Sigmoid_output_0: 3c075eba
/model.22/Reshape_5_output_0: 3f204a85
/model.22/Reshape_6_output_0: 3f204a85
/model.18/m.1/cv1/act/Mul_output_0: 3cab686b
/model.22/ConstantOfShape_1_output_0: 0
/model.22/cv3.2/cv3.2.1/conv/Conv_output_0: 3eaf4b1b
/model.22/Reshape_8_output_0: 3e9f4871
/model.22/cv2.1/cv2.1.0/conv/Conv_output_0: 3e08efc8
/model.22/Transpose_1_output_0: 3e810a14
/model.22/Squeeze_1_output_0_output: 3e010a14
ONNXTRT_ShapeShuffle_287_output: 0
/model.22/Concat_24_output_0: 3f35bbc8
/model.22/Slice_1_output_0: 3de426ca
/model.22/Mul_5_output_0: 40a0bf29
/model.22/cv3.2/cv3.2.1/act/Sigmoid_output_0: 3c010a14
ONNXTRT_Broadcast_292_output: 3e810a14
/model.22/Expand_output_0: 3f204a85
/model.22/Range_2_output_0: 3e9d4449
ONNXTRT_ShapeShuffle_280_output: 3c010a14
/model.19/act/Sigmoid_output_0: 3c011220
/model.22/cv3.2/cv3.2.0/act/Sigmoid_output_0: 3c010a14
/model.22/Split_1_output_0: 3ec28458
/model.22/Split_1_output_1: 3f71d885
/model.21/cv2/act/Mul_output_0: 3d44e1c1
/model.21/cv1/act/Sigmoid_output_0: 3c021391
/model.22/Reshape_2_output_0: 3e4f5d1c
/model.22/dfl/Transpose_1_output_0: 3be133b5
/model.22/cv2.1/cv2.1.1/conv/Conv_output_0: 3e20b801
/model.22/Div_1_output_0: 3f20930a
/model.22/Expand_1_output_0: 3f204a85
/model.18/m.1/cv2/conv/Conv_output_0: 3dfe3ae6
/model.21/cv2/conv/Conv_output_0: 3e2ca06a
/model.22/Unsqueeze_3_output_0: 3f204a85
/model.21/m.1/cv2/conv/Conv_output_0: 3e307849
/model.22/Unsqueeze_4_output_0: 3f204a85
/model.18/m.1/cv2/act/Sigmoid_output_0: 3c010a14
/model.22/Concat_10_output_0: 3f204a85
/model.18/m.1/cv2/act/Mul_output_0: 3d743598
/model.22/Reshape_7_output_0: 3f204a85
/model.18/Concat_output_0: 3d743598
/model.18/cv2/conv/Conv_output_0: 3e09f9d8
/model.18/cv2/act/Sigmoid_output_0: 3c010a14
/model.18/cv2/act/Mul_output_0: 3d13d1fa
/model.19/conv/Conv_output_0: 3da3eb2f
